<unk>	0
▁t	-0
he	-1
▁a	-2
▁the	-3
in	-4
▁s	-5
▁w	-6
re	-7
er	-8
▁o	-9
▁c	-10
ha	-11
▁b	-12
is	-13
ed	-14
▁p	-15
nd	-16
▁f	-17
▁m	-18
▁in	-19
en	-20
on	-21
▁d	-22
it	-23
an	-24
ou	-25
▁to	-26
or	-27
es	-28
ing	-29
at	-30
ar	-31
ll	-32
▁and	-33
as	-34
▁n	-35
le	-36
▁of	-37
▁ha	-38
ic	-39
al	-40
om	-41
▁h	-42
▁he	-43
▁l	-44
▁g	-45
id	-46
▁is	-47
▁be	-48
▁e	-49
ow	-50
ot	-51
ve	-52
ent	-53
us	-54
ion	-55
▁re	-56
▁y	-57
▁on	-58
ver	-59
ra	-60
hat	-61
▁th	-62
▁was	-63
ir	-64
▁we	-65
▁st	-66
▁for	-67
il	-68
im	-69
ct	-70
ay	-71
am	-72
▁you	-73
▁that	-74
ut	-75
ill	-76
▁it	-77
et	-78
st	-79
▁r	-80
▁k	-81
ol	-82
ur	-83
op	-84
ad	-85
ac	-86
▁v	-87
▁de	-88
ig	-89
▁are	-90
ter	-91
▁an	-92
▁wh	-93
▁they	-94
ly	-95
▁this	-96
▁as	-97
di	-98
▁2	-99
ak	-100
▁1	-101
ld	-102
▁sa	-103
un	-104
ith	-105
▁i	-106
ce	-107
se	-108
▁with	-109
▁have	-110
▁will	-111
▁not	-112
▁pr	-113
ers	-114
▁j	-115
ag	-116
▁se	-117
ch	-118
▁fr	-119
th	-120
▁has	-121
ation	-122
her	-123
▁su	-124
ment	-125
▁were	-126
▁indi	-127
▁com	-128
▁at	-129
oo	-130
▁sh	-131
▁pe	-132
▁ne	-133
pp	-134
ul	-135
▁al	-136
▁all	-137
▁le	-138
ts	-139
▁from	-140
▁said	-141
▁peop	-142
um	-143
▁people	-144
oc	-145
▁his	-146
▁man	-147
all	-148
▁she	-149
ri	-150
▁mo	-151
▁u	-152
▁go	-153
est	-154
▁con	-155
▁do	-156
▁wor	-157
▁ab	-158
os	-159
iv	-160
very	-161
▁by	-162
▁there	-163
ain	-164
if	-165
ate	-166
res	-167
▁her	-168
red	-169
▁or	-170
and	-171
ht	-172
▁whe	-173
han	-174
▁can	-175
▁ex	-176
▁cou	-177
ab	-178
art	-179
ide	-180
ist	-181
▁had	-182
out	-183
▁us	-184
▁me	-185
▁20	-186
▁their	-187
ice	-188
ome	-189
▁ch	-190
▁pl	-191
▁co	-192
ies	-193
ant	-194
nt	-195
▁how	-196
▁te	-197
one	-198
ie	-199
age	-200
qu	-201
ess	-202
▁af	-203
▁india	-204
▁but	-205
ort	-206
ust	-207
▁ar	-208
▁now	-209
▁ra	-210
▁sp	-211
ect	-212
00	-213
ik	-214
ity	-215
▁about	-216
ear	-217
ive	-218
so	-219
▁been	-220
▁ag	-221
ber	-222
ould	-223
ich	-224
▁when	-225
▁also	-226
▁3	-227
▁many	-228
ake	-229
▁comp	-230
▁so	-231
ry	-232
▁who	-233
▁which	-234
ame	-235
▁very	-236
ro	-237
▁pol	-238
▁them	-239
▁ac	-240
ked	-241
te	-242
▁if	-243
ap	-244
ood	-245
ong	-246
▁then	-247
ound	-248
ight	-249
▁pro	-250
▁am	-251
our	-252
ial	-253
ge	-254
ure	-255
ther	-256
vern	-257
▁after	-258
▁govern	-259
▁bec	-260
ans	-261
▁bo	-262
ud	-263
▁im	-264
▁year	-265
ard	-266
▁up	-267
▁these	-268
▁cl	-269
ast	-270
ue	-271
ous	-272
ated	-273
▁one	-274
▁government	-275
are	-276
king	-277
ind	-278
▁fe	-279
▁no	-280
▁him	-281
har	-282
ine	-283
▁un	-284
ep	-285
▁your	-286
af	-287
▁what	-288
ass	-289
▁new	-290
hi	-291
ime	-292
▁tw	-293
▁out	-294
▁other	-295
fe	-296
ia	-297
▁police	-298
ict	-299
ike	-300
ack	-301
own	-302
aus	-303
▁would	-304
▁tra	-305
ever	-306
ild	-307
ions	-308
▁5	-309
▁kn	-310
▁ev	-311
▁en	-312
ident	-313
el	-314
▁min	-315
▁some	-316
ang	-317
ays	-318
▁4	-319
ks	-320
▁off	-321
▁inc	-322
▁cont	-323
▁dis	-324
▁act	-325
▁ad	-326
pl	-327
▁however	-328
▁202	-329
▁like	-330
oug	-331
▁po	-332
ater	-333
als	-334
▁bl	-335
av	-336
ally	-337
▁acc	-338
em	-339
▁hel	-340
ign	-341
▁sc	-342
▁sha	-343
▁let	-344
ause	-345
▁res	-346
ore	-347
vid	-348
ug	-349
▁mar	-350
nder	-351
▁fl	-352
▁did	-353
ail	-354
▁deaf	-355
ick	-356
▁any	-357
▁cr	-358
▁part	-359
ace	-360
▁qu	-361
▁tr	-362
li	-363
▁app	-364
hed	-365
ary	-366
ach	-367
port	-368
ile	-369
▁lo	-370
▁such	-371
ress	-372
▁wom	-373
▁time	-374
▁fam	-375
ble	-376
ree	-377
other	-378
▁help	-379
▁vide	-380
▁every	-381
▁over	-382
▁gr	-383
ase	-384
ren	-385
▁because	-386
ip	-387
▁child	-388
▁ro	-389
▁fir	-390
tc	-391
▁br	-392
erson	-393
▁dif	-394
uc	-395
ted	-396
orm	-397
▁med	-398
▁two	-399
ire	-400
ite	-401
ister	-402
▁mad	-403
▁aw	-404
▁dec	-405
▁well	-406
▁etc	-407
ank	-408
▁rs	-409
▁indian	-410
▁even	-411
▁ma	-412
ash	-413
ord	-414
▁why	-415
ai	-416
ved	-417
▁more	-418
atch	-419
▁get	-420
▁see	-421
▁again	-422
ish	-423
▁know	-424
▁inf	-425
▁person	-426
▁world	-427
ily	-428
▁per	-429
▁str	-430
▁years	-431
▁comm	-432
▁happ	-433
▁want	-434
▁rem	-435
▁6	-436
▁car	-437
old	-438
▁may	-439
rent	-440
igh	-441
▁only	-442
ors	-443
ook	-444
▁call	-445
▁start	-446
▁first	-447
ok	-448
▁video	-449
able	-450
▁make	-451
ult	-452
rest	-453
ens	-454
▁la	-455
per	-456
ough	-457
up	-458
▁under	-459
▁fo	-460
▁cour	-461
ities	-462
to	-463
▁giv	-464
▁air	-465
ance	-466
▁count	-467
▁minister	-468
▁inv	-469
ings	-470
▁rec	-471
▁made	-472
iz	-473
ath	-474
▁cha	-475
▁inter	-476
me	-477
▁7	-478
ple	-479
ents	-480
▁vir	-481
▁my	-482
▁water	-483
oss	-484
ife	-485
ory	-486
▁bu	-487
..	-488
▁ear	-489
▁sec	-490
▁fil	-491
ied	-492
▁201	-493
▁mon	-494
▁work	-495
▁food	-496
▁num	-497
ious	-498
og	-499
uct	-500
ince	-501
▁page	-502
we	-503
▁pres	-504
▁found	-505
nds	-506
ced	-507
▁than	-508
▁-	-509
▁while	-510
▁pass	-511
ff	-512
▁wr	-513
mber	-514
▁sign	-515
▁offic	-516
▁em	-517
act	-518
ations	-519
▁family	-520
uss	-521
▁went	-522
▁bet	-523
lect	-524
▁back	-525
▁sing	-526
▁har	-527
ines	-528
ink	-529
▁play	-530
▁diffe	-531
▁just	-532
▁day	-533
▁del	-534
000	-535
ock	-536
ence	-537
▁jo	-538
▁sur	-539
uring	-540
▁pra	-541
▁sm	-542
ating	-543
▁par	-544
▁supp	-545
▁pre	-546
▁due	-547
▁its	-548
▁che	-549
ned	-550
▁home	-551
▁since	-552
oun	-553
umb	-554
vel	-555
▁take	-556
esh	-557
ub	-558
▁number	-559
▁dr	-560
istan	-561
▁chan	-562
▁news	-563
▁inst	-564
ged	-565
▁10	-566
▁spe	-567
ates	-568
▁must	-569
ose	-570
llow	-571
▁fin	-572
▁covid	-573
▁being	-574
▁into	-575
dy	-576
▁children	-577
▁ke	-578
▁rel	-579
▁thr	-580
▁show	-581
ting	-582
▁given	-583
▁different	-584
pe	-585
ning	-586
▁against	-587
ried	-588
pr	-589
▁prot	-590
eng	-591
▁gir	-592
les	-593
▁tak	-594
▁tell	-595
▁pm	-596
▁where	-597
hes	-598
▁our	-599
▁modi	-600
▁ann	-601
▁court	-602
▁ins	-603
lf	-604
ms	-605
ital	-606
▁need	-607
▁stud	-608
▁women	-609
pt	-610
▁gu	-611
,000	-612
ants	-613
▁could	-614
▁here	-615
▁old	-616
oy	-617
▁used	-618
ments	-619
ful	-620
▁shoc	-621
▁lot	-622
oth	-623
▁during	-624
▁cre	-625
iss	-626
day	-627
ected	-628
▁bel	-629
▁around	-630
ft	-631
▁ent	-632
ds	-633
▁soc	-634
▁compan	-635
▁allow	-636
ave	-637
▁tal	-638
ise	-639
▁girl	-640
▁same	-641
▁use	-642
ited	-643
▁mumb	-644
▁should	-645
▁state	-646
▁ser	-647
▁pict	-648
ces	-649
▁dist	-650
▁comple	-651
▁say	-652
▁name	-653
ised	-654
▁mumbai	-655
▁vac	-656
▁9	-657
▁called	-658
cc	-659
▁month	-660
▁ass	-661
▁post	-662
▁asked	-663
▁follow	-664
ition	-665
▁elect	-666
▁don	-667
osp	-668
▁announ	-669
med	-670
ool	-671
read	-672
▁z	-673
ical	-674
▁delhi	-675
ered	-676
man	-677
▁started	-678
icket	-679
▁cor	-680
ouse	-681
ya	-682
▁reg	-683
reme	-684
alth	-685
▁vacc	-686
▁ph	-687
get	-688
ib	-689
ond	-690
▁last	-691
▁resp	-692
▁pak	-693
hing	-694
ull	-695
▁team	-696
ational	-697
oney	-698
ided	-699
aug	-700
▁sch	-701
▁hosp	-702
ased	-703
ief	-704
▁bus	-705
▁betwe	-706
▁vis	-707
▁between	-708
▁ce	-709
akh	-710
▁nam	-711
ian	-712
▁arrest	-713
▁days	-714
▁cro	-715
▁exp	-716
▁through	-717
vers	-718
ving	-719
▁coll	-720
▁everyone	-721
▁att	-722
▁ter	-723
bs	-724
ins	-725
▁school	-726
▁lead	-727
aring	-728
▁invest	-729
▁trans	-730
ather	-731
omet	-732
▁find	-733
ina	-734
▁des	-735
▁ord	-736
-1	-737
wn	-738
▁social	-739
angu	-740
▁down	-741
▁pakistan	-742
▁keep	-743
ma	-744
arn	-745
▁col	-746
oup	-747
▁health	-748
▁cent	-749
▁liv	-750
▁19	-751
▁each	-752
ages	-753
▁sim	-754
▁media	-755
▁look	-756
ons	-757
▁long	-758
▁going	-759
ened	-760
ount	-761
▁law	-762
▁support	-763
▁doct	-764
▁does	-765
br	-766
▁money	-767
reat	-768
▁met	-769
▁ext	-770
▁right	-771
▁think	-772
▁president	-773
▁raj	-774
ert	-775
▁mat	-776
▁house	-777
▁official	-778
xt	-779
fore	-780
ric	-781
▁mus	-782
▁woman	-783
▁inform	-784
ck	-785
▁15	-786
▁away	-787
▁disc	-788
▁var	-789
▁lakh	-790
▁life	-791
▁ret	-792
▁case	-793
▁stop	-794
▁langu	-795
▁cond	-796
▁ban	-797
▁high	-798
▁cap	-799
▁far	-800
▁three	-801
▁dash	-802
▁proble	-803
▁come	-804
▁12	-805
▁country	-806
▁commun	-807
▁singh	-808
az	-809
ram	-810
▁hospital	-811
▁quest	-812
▁viral	-813
▁body	-814
▁took	-815
ral	-816
uary	-817
mb	-818
ped	-819
ways	-820
▁frie	-821
▁before	-822
▁mother	-823
▁op	-824
▁pay	-825
▁another	-826
▁complete	-827
its	-828
▁incident	-829
▁contin	-830
▁announced	-831
ought	-832
▁won	-833
▁read	-834
▁both	-835
ures	-836
▁pat	-837
▁crore	-838
▁earli	-839
▁ve	-840
▁watch	-841
▁decided	-842
gan	-843
▁got	-844
▁group	-845
▁allowed	-846
-19	-847
ible	-848
▁cur	-849
▁2022	-850
ours	-851
▁import	-852
▁sit	-853
▁somet	-854
▁rul	-855
▁match	-856
ke	-857
▁once	-858
▁add	-859
▁sep	-860
ries	-861
▁place	-862
vie	-863
▁students	-864
aren	-865
▁happy	-866
▁told	-867
▁1.	-868
▁sent	-869
▁earlier	-870
▁dem	-871
ters	-872
▁give	-873
ases	-874
▁imp	-875
▁meet	-876
nded	-877
ured	-878
▁red	-879
urn	-880
rib	-881
osed	-882
▁russ	-883
▁pun	-884
▁sol	-885
▁war	-886
▁mu	-887
orts	-888
▁language	-889
ording	-890
▁blank	-891
la	-892
▁never	-893
▁anim	-894
▁arrested	-895
▁pa	-896
▁came	-897
used	-898
▁incl	-899
▁uk	-900
▁good	-901
▁company	-902
▁boy	-903
▁bab	-904
▁picture	-905
fic	-906
tle	-907
▁det	-908
ana	-909
▁prad	-910
▁test	-911
uck	-912
▁ed	-913
▁taken	-914
...	-915
▁strong	-916
▁intern	-917
▁care	-918
▁exam	-919
▁hard	-920
▁named	-921
▁rep	-922
▁compl	-923
▁sal	-924
asht	-925
▁sus	-926
▁ind	-927
▁able	-928
▁run	-929
▁rece	-930
ves	-931
▁according	-932
▁14	-933
jp	-934
▁ta	-935
▁own	-936
▁2020	-937
▁rest	-938
▁death	-939
ata	-940
▁sw	-941
aint	-942
▁son	-943
▁investig	-944
▁'	-945
▁train	-946
▁loc	-947
▁vill	-948
▁mas	-949
▁become	-950
ges	-951
▁wanted	-952
▁11	-953
▁still	-954
led	-955
ists	-956
▁plan	-957
▁extreme	-958
ets	-959
▁cle	-960
ashtra	-961
▁mahar	-962
▁chief	-963
▁big	-964
imes	-965
▁conf	-966
▁lock	-967
▁next	-968
down	-969
ject	-970
▁av	-971
▁hu	-972
ards	-973
vidu	-974
▁few	-975
lic	-976
▁aut	-977
▁includ	-978
▁individu	-979
▁cons	-980
▁land	-981
▁held	-982
▁bjp	-983
ala	-984
iness	-985
▁seen	-986
▁too	-987
▁most	-988
▁sy	-989
▁story	-990
▁countries	-991
▁important	-992
▁way	-993
ower	-994
▁gen	-995
▁those	-996
▁left	-997
▁working	-998
▁iss	-999
▁mil	-1000
▁face	-1001
▁pradesh	-1002
▁rele	-1003
▁maharashtra	-1004
▁put	-1005
▁prop	-1006
▁report	-1007
cy	-1008
▁dri	-1009
ix	-1010
od	-1011
▁inte	-1012
aking	-1013
▁sl	-1014
ices	-1015
▁vi	-1016
▁kill	-1017
▁always	-1018
ats	-1019
▁died	-1020
▁small	-1021
▁gl	-1022
▁pur	-1023
▁set	-1024
ote	-1025
ued	-1026
▁underst	-1027
rict	-1028
▁father	-1029
arly	-1030
ility	-1031
▁char	-1032
ots	-1033
▁dra	-1034
▁eng	-1035
aut	-1036
▁men	-1037
▁ref	-1038
▁china	-1039
▁remain	-1040
▁officials	-1041
ering	-1042
▁rules	-1043
▁lockdown	-1044
▁spread	-1045
▁hand	-1046
▁prod	-1047
▁simil	-1048
▁ran	-1049
cial	-1050
▁dep	-1051
▁shocked	-1052
self	-1053
▁try	-1054
▁question	-1055
▁film	-1056
▁2.	-1057
▁wal	-1058
▁form	-1059
ficult	-1060
▁exper	-1061
▁cricket	-1062
▁difficult	-1063
ove	-1064
▁done	-1065
▁khan	-1066
▁bir	-1067
▁sk	-1068
▁wife	-1069
▁ju	-1070
▁cong	-1071
▁farm	-1072
▁extremely	-1073
▁feel	-1074
▁saw	-1075
▁activ	-1076
ndra	-1077
ump	-1078
▁road	-1079
▁terr	-1080
▁class	-1081
▁incre	-1082
ately	-1083
app	-1084
▁words	-1085
▁months	-1086
▁second	-1087
▁four	-1088
▁various	-1089
ploy	-1090
▁cases	-1091
▁without	-1092
ues	-1093
▁pos	-1094
▁tem	-1095
irect	-1096
▁direct	-1097
▁bre	-1098
▁along	-1099
▁gra	-1100
▁filed	-1101
form	-1102
arents	-1103
ired	-1104
ne	-1105
▁something	-1106
▁individuals	-1107
▁bra	-1108
▁area	-1109
▁bank	-1110
▁wee	-1111
hip	-1112
▁jun	-1113
ger	-1114
mit	-1115
▁open	-1116
▁loo	-1117
ics	-1118
▁exc	-1119
▁stay	-1120
ross	-1121
ights	-1122
▁using	-1123
▁sure	-1124
▁wa	-1125
▁fig	-1126
▁sun	-1127
▁doctors	-1128
▁yes	-1129
ision	-1130
▁real	-1131
▁parents	-1132
▁shocking	-1133
olog	-1134
▁across	-1135
ute	-1136
▁plac	-1137
▁jan	-1138
▁serv	-1139
▁build	-1140
▁gener	-1141
ten	-1142
ops	-1143
▁business	-1144
▁known	-1145
ees	-1146
ys	-1147
▁eas	-1148
▁2019	-1149
▁flight	-1150
ative	-1151
▁win	-1152
▁teac	-1153
▁passeng	-1154
▁isl	-1155
▁till	-1156
▁demand	-1157
rol	-1158
▁lit	-1159
▁sub	-1160
▁requ	-1161
ached	-1162
▁party	-1163
▁russia	-1164
ails	-1165
▁apr	-1166
ually	-1167
▁friends	-1168
ems	-1169
ched	-1170
thing	-1171
▁states	-1172
▁16	-1173
ches	-1174
▁sen	-1175
▁animals	-1176
cha	-1177
▁cm	-1178
▁couple	-1179
▁30	-1180
▁aff	-1181
mbers	-1182
▁april	-1183
▁teacher	-1184
▁members	-1185
▁fore	-1186
ety	-1187
ract	-1188
ently	-1189
mp	-1190
ared	-1191
▁understand	-1192
▁march	-1193
ones	-1194
▁fun	-1195
▁suff	-1196
ission	-1197
ason	-1198
▁huge	-1199
ead	-1200
▁adv	-1201
▁ut	-1202
my	-1203
▁list	-1204
▁mess	-1205
▁coron	-1206
▁travel	-1207
ual	-1208
▁head	-1209
ng	-1210
▁di	-1211
ully	-1212
▁lar	-1213
▁movie	-1214
▁hearing	-1215
▁usa	-1216
▁others	-1217
▁happened	-1218
▁pet	-1219
▁protest	-1220
▁things	-1221
ars	-1222
ost	-1223
▁tax	-1224
▁lost	-1225
iting	-1226
▁much	-1227
▁pand	-1228
velop	-1229
▁free	-1230
▁25	-1231
▁50	-1232
▁buy	-1233
▁safe	-1234
itiz	-1235
ored	-1236
▁gave	-1237
▁gre	-1238
▁virus	-1239
▁instead	-1240
ising	-1241
avir	-1242
▁2021	-1243
▁national	-1244
ior	-1245
▁eat	-1246
▁later	-1247
ope	-1248
▁el	-1249
▁move	-1250
▁tre	-1251
▁stand	-1252
▁write	-1253
ene	-1254
▁problems	-1255
joy	-1256
way	-1257
▁enc	-1258
tal	-1259
▁expl	-1260
▁soon	-1261
▁end	-1262
▁atte	-1263
avirus	-1264
▁figure	-1265
▁interest	-1266
▁ple	-1267
▁ukra	-1268
ived	-1269
▁dece	-1270
▁hours	-1271
ims	-1272
▁bad	-1273
▁june	-1274
▁pub	-1275
▁fire	-1276
▁attack	-1277
▁shared	-1278
lling	-1279
▁ir	-1280
▁develop	-1281
dd	-1282
ept	-1283
▁hum	-1284
▁tour	-1285
▁3.	-1286
▁cup	-1287
▁strict	-1288
aw	-1289
band	-1290
line	-1291
▁learn	-1292
▁coronavirus	-1293
vi	-1294
der	-1295
▁inj	-1296
▁amaz	-1297
▁saying	-1298
int	-1299
aught	-1300
▁cele	-1301
▁employ	-1302
ani	-1303
ret	-1304
ange	-1305
▁hus	-1306
illion	-1307
▁organ	-1308
ness	-1309
umar	-1310
sw	-1311
▁disab	-1312
ection	-1313
▁village	-1314
▁ru	-1315
▁love	-1316
▁proc	-1317
▁current	-1318
▁discuss	-1319
▁married	-1320
outh	-1321
▁baby	-1322
▁inside	-1323
▁vaccine	-1324
▁fac	-1325
▁kept	-1326
▁prom	-1327
▁prov	-1328
▁actor	-1329
▁near	-1330
ained	-1331
▁miss	-1332
oh	-1333
ests	-1334
▁appro	-1335
▁order	-1336
▁hot	-1337
uation	-1338
▁heart	-1339
▁age	-1340
▁fill	-1341
▁const	-1342
▁13	-1343
▁sad	-1344
▁share	-1345
▁celebr	-1346
kar	-1347
▁january	-1348
ressed	-1349
▁december	-1350
▁bro	-1351
▁educ	-1352
ient	-1353
▁became	-1354
▁completely	-1355
con	-1356
▁nat	-1357
▁citiz	-1358
▁total	-1359
ieve	-1360
ruct	-1361
ished	-1362
▁posit	-1363
▁prime	-1364
bo	-1365
▁equ	-1366
▁uni	-1367
▁best	-1368
▁partic	-1369
land	-1370
eet	-1371
augh	-1372
▁occ	-1373
ution	-1374
▁enjoy	-1375
▁access	-1376
▁husband	-1377
oura	-1378
▁san	-1379
▁information	-1380
▁200	-1381
▁top	-1382
oud	-1383
de	-1384
na	-1385
tar	-1386
▁ang	-1387
▁famous	-1388
▁decision	-1389
▁terror	-1390
jar	-1391
▁wed	-1392
▁remem	-1393
hal	-1394
▁released	-1395
▁international	-1396
hor	-1397
▁mr	-1398
▁july	-1399
ns	-1400
rd	-1401
ven	-1402
▁aust	-1403
▁district	-1404
▁ob	-1405
▁congress	-1406
▁below	-1407
▁power	-1408
reed	-1409
gs	-1410
air	-1411
▁oct	-1412
urity	-1413
▁beaut	-1414
▁experi	-1415
ner	-1416
end	-1417
▁aug	-1418
▁surpr	-1419
▁times	-1420
▁passengers	-1421
▁means	-1422
lt	-1423
mon	-1424
▁dead	-1425
go	-1426
▁security	-1427
▁complaint	-1428
▁mob	-1429
▁visit	-1430
▁making	-1431
▁div	-1432
▁grow	-1433
ular	-1434
▁sever	-1435
▁austral	-1436
▁dang	-1437
▁king	-1438
tember	-1439
▁board	-1440
▁daugh	-1441
▁august	-1442
lled	-1443
ories	-1444
▁answ	-1445
▁viol	-1446
▁communic	-1447
▁leave	-1448
▁wants	-1449
▁september	-1450
ober	-1451
▁sho	-1452
▁october	-1453
▁pan	-1454
▁succ	-1455
▁little	-1456
▁ukraine	-1457
▁cam	-1458
▁live	-1459
gether	-1460
min	-1461
ention	-1462
▁today	-1463
▁remember	-1464
lly	-1465
ding	-1466
▁army	-1467
▁author	-1468
ott	-1469
▁bi	-1470
aper	-1471
bruary	-1472
▁several	-1473
▁citizens	-1474
ali	-1475
eric	-1476
▁box	-1477
▁community	-1478
ee	-1479
▁fu	-1480
▁ish	-1481
▁opp	-1482
istry	-1483
▁problem	-1484
eal	-1485
nel	-1486
side	-1487
▁dev	-1488
▁gujar	-1489
▁paid	-1490
▁february	-1491
aff	-1492
▁boo	-1493
▁central	-1494
▁pop	-1495
▁tow	-1496
▁gujarat	-1497
cept	-1498
▁cla	-1499
▁caus	-1500
▁cost	-1501
▁gold	-1502
▁polit	-1503
▁danger	-1504
▁encoura	-1505
itter	-1506
▁capt	-1507
▁shar	-1508
▁short	-1509
oke	-1510
▁reason	-1511
▁together	-1512
▁change	-1513
hant	-1514
▁mark	-1515
▁mean	-1516
▁success	-1517
▁continue	-1518
▁pictures	-1519
hic	-1520
oor	-1521
▁maj	-1522
▁side	-1523
▁uttar	-1524
▁received	-1525
▁companies	-1526
ty	-1527
▁ide	-1528
▁young	-1529
▁vaccin	-1530
▁4.	-1531
▁separ	-1532
▁videos	-1533
iti	-1534
udi	-1535
▁shows	-1536
▁special	-1537
jab	-1538
▁100	-1539
▁sat	-1540
▁entire	-1541
▁situation	-1542
cle	-1543
leep	-1544
▁cust	-1545
▁fur	-1546
▁city	-1547
▁nove	-1548
▁living	-1549
▁matter	-1550
▁21	-1551
ling	-1552
medi	-1553
ream	-1554
▁doing	-1555
▁bur	-1556
▁product	-1557
▁november	-1558
▁following	-1559
▁wrong	-1560
ossible	-1561
▁passed	-1562
be	-1563
cer	-1564
gen	-1565
▁ri	-1566
year	-1567
▁ram	-1568
▁foot	-1569
▁immedi	-1570
▁letter	-1571
▁places	-1572
▁bag	-1573
▁desp	-1574
▁parts	-1575
▁brother	-1576
▁ap	-1577
▁twitter	-1578
▁positive	-1579
orn	-1580
▁17	-1581
▁ey	-1582
▁sam	-1583
urned	-1584
▁wear	-1585
▁someone	-1586
ific	-1587
▁better	-1588
▁record	-1589
▁bat	-1590
▁insp	-1591
▁rail	-1592
▁night	-1593
▁table	-1594
▁space	-1595
▁process	-1596
▁staff	-1597
▁conduct	-1598
▁elections	-1599
rap	-1600
gest	-1601
▁details	-1602
▁example	-1603
ium	-1604
ences	-1605
fered	-1606
▁beng	-1607
▁conn	-1608
▁gone	-1609
▁laun	-1610
▁major	-1611
▁doctor	-1612
▁bow	-1613
▁mal	-1614
▁talk	-1615
▁public	-1616
▁really	-1617
ism	-1618
▁24	-1619
▁ens	-1620
▁tweet	-1621
▁killed	-1622
▁meeting	-1623
oms	-1624
▁mor	-1625
▁amount	-1626
▁perform	-1627
▁bar	-1628
▁priv	-1629
▁finally	-1630
▁present	-1631
▁reported	-1632
▁tri	-1633
▁upd	-1634
▁fall	-1635
▁star	-1636
ives	-1637
▁lear	-1638
▁sup	-1639
▁five	-1640
▁join	-1641
▁shah	-1642
ilities	-1643
▁bengal	-1644
▁plants	-1645
cing	-1646
▁helped	-1647
aged	-1648
▁mur	-1649
▁week	-1650
▁lives	-1651
▁super	-1652
▁tried	-1653
▁beautif	-1654
war	-1655
ized	-1656
▁alle	-1657
▁draw	-1658
▁kumar	-1659
avy	-1660
▁vehic	-1661
▁recently	-1662
▁currently	-1663
akes	-1664
▁prep	-1665
▁tech	-1666
▁control	-1667
▁wearing	-1668
▁deli	-1669
▁items	-1670
▁americ	-1671
▁sn	-1672
▁leav	-1673
▁rain	-1674
▁ordered	-1675
▁comments	-1676
▁ministry	-1677
▁ur	-1678
▁turn	-1679
▁vict	-1680
▁taking	-1681
ird	-1682
▁amb	-1683
▁mag	-1684
▁close	-1685
▁farmers	-1686
▁station	-1687
▁dangerous	-1688
arch	-1689
▁cir	-1690
▁ball	-1691
▁jail	-1692
▁phone	-1693
ci	-1694
oci	-1695
▁colle	-1696
▁provid	-1697
▁education	-1698
fully	-1699
▁2023	-1700
▁immediately	-1701
▁ker	-1702
▁saf	-1703
▁associ	-1704
▁investigation	-1705
abad	-1706
▁ipl	-1707
▁milit	-1708
▁daughter	-1709
▁es	-1710
emic	-1711
▁mult	-1712
▁south	-1713
▁reached	-1714
20	-1715
▁sleep	-1716
▁though	-1717
▁similar	-1718
▁deep	-1719
▁fact	-1720
▁large	-1721
ibility	-1722
▁wedding	-1723
ging	-1724
▁obs	-1725
ament	-1726
inese	-1727
▁award	-1728
▁black	-1729
▁heard	-1730
▁respons	-1731
▁supreme	-1732
▁whether	-1733
▁suffering	-1734
ural	-1735
▁six	-1736
▁invol	-1737
▁medic	-1738
▁beautiful	-1739
▁5.	-1740
▁7.	-1741
▁chinese	-1742
▁contact	-1743
▁provide	-1744
▁thought	-1745
jay	-1746
que	-1747
▁hen	-1748
nding	-1749
▁less	-1750
▁shut	-1751
▁agreed	-1752
▁please	-1753
▁leaders	-1754
▁project	-1755
ah	-1756
bi	-1757
▁ident	-1758
▁posted	-1759
▁informed	-1760
order	-1761
▁musl	-1762
inking	-1763
▁event	-1764
▁worked	-1765
▁medical	-1766
▁squ	-1767
▁stopped	-1768
ade	-1769
ying	-1770
▁shiv	-1771
▁matches	-1772
▁workers	-1773
agram	-1774
▁friend	-1775
▁kash	-1776
mitted	-1777
▁caught	-1778
▁having	-1779
▁outside	-1780
▁building	-1781
ps	-1782
ready	-1783
▁union	-1784
▁already	-1785
▁pil	-1786
▁bene	-1787
▁interp	-1788
▁despite	-1789
▁getting	-1790
▁instagram	-1791
▁cut	-1792
▁fut	-1793
▁masks	-1794
▁jud	-1795
▁drug	-1796
▁avail	-1797
tern	-1798
▁hind	-1799
▁colum	-1800
▁girls	-1801
▁return	-1802
▁protect	-1803
▁obser	-1804
▁including	-1805
▁jk	-1806
▁kid	-1807
▁mot	-1808
▁pandemic	-1809
ron	-1810
▁tha	-1811
▁oper	-1812
▁runs	-1813
▁future	-1814
▁electric	-1815
mir	-1816
wal	-1817
ffic	-1818
▁cert	-1819
▁break	-1820
▁created	-1821
ified	-1822
▁fail	-1823
▁pati	-1824
artment	-1825
▁schools	-1826
▁tv	-1827
ples	-1828
▁book	-1829
▁card	-1830
▁played	-1831
▁request	-1832
▁hold	-1833
▁word	-1834
▁famil	-1835
▁secret	-1836
▁indians	-1837
ows	-1838
▁job	-1839
conom	-1840
▁check	-1841
▁22	-1842
▁felt	-1843
▁phot	-1844
▁prev	-1845
▁great	-1846
▁econom	-1847
sh	-1848
▁wo	-1849
▁beg	-1850
▁pain	-1851
▁carry	-1852
▁course	-1853
▁nc	-1854
▁pack	-1855
▁prof	-1856
▁treat	-1857
pes	-1858
▁ant	-1859
▁bas	-1860
▁ill	-1861
▁nor	-1862
ality	-1863
▁kind	-1864
▁ago	-1865
▁arg	-1866
▁rule	-1867
▁says	-1868
▁hands	-1869
bha	-1870
▁net	-1871
▁remo	-1872
▁earth	-1873
▁dh	-1874
ction	-1875
▁techn	-1876
▁punjab	-1877
▁airport	-1878
▁australia	-1879
▁poor	-1880
▁west	-1881
▁aware	-1882
▁trump	-1883
▁kerala	-1884
omes	-1885
▁kashmir	-1886
gn	-1887
uk	-1888
▁23	-1889
▁ash	-1890
▁areas	-1891
▁reach	-1892
▁whats	-1893
▁accused	-1894
▁art	-1895
lines	-1896
▁shop	-1897
▁activity	-1898
ura	-1899
ush	-1900
view	-1901
▁gand	-1902
▁meas	-1903
▁step	-1904
▁yester	-1905
▁distrib	-1906
yan	-1907
▁hit	-1908
▁int	-1909
▁commit	-1910
▁bha	-1911
▁bom	-1912
▁jam	-1913
▁oil	-1914
▁families	-1915
ses	-1916
▁sum	-1917
▁tam	-1918
▁paper	-1919
▁yesterday	-1920
ians	-1921
isha	-1922
▁sug	-1923
ology	-1924
▁luck	-1925
▁claim	-1926
▁quick	-1927
▁relig	-1928
▁general	-1929
ta	-1930
▁ready	-1931
▁account	-1932
▁similarly	-1933
uce	-1934
▁40	-1935
▁rup	-1936
▁milk	-1937
▁began	-1938
▁safety	-1939
▁contain	-1940
▁anything	-1941
▁military	-1942
uced	-1943
▁answer	-1944
▁amazing	-1945
▁nad	-1946
ening	-1947
▁cann	-1948
▁ensure	-1949
▁wonder	-1950
▁possible	-1951
▁	-1952
e	-1953
a	-1954
t	-1955
i	-1956
o	-1957
n	-1958
s	-1959
r	-1960
h	-1961
d	-1962
l	-1963
c	-1964
u	-1965
m	-1966
p	-1967
w	-1968
f	-1969
g	-1970
.	-1971
y	-1972
b	-1973
v	-1974
k	-1975
,	-1976
0	-1977
2	-1978
j	-1979
1	-1980
'	-1981
x	-1982
-	-1983
5	-1984
3	-1985
?	-1986
z	-1987
q	-1988
4	-1989
9	-1990
!	-1991
6	-1992
7	-1993
